#ifndef MODEL_DATA_H
#define MODEL_DATA_H

unsigned char model_tflite[] = {
  0x1c, 0x00, 0x00, 0x00, 0x54, 0x46, 0x4c, 0x33, 0x14, 0x00, 0x20, 0x00,
  0x1c, 0x00, 0x18, 0x00, 0x14, 0x00, 0x10, 0x00, 0x0c, 0x00, 0x00, 0x00,
  0x08, 0x00, 0x04, 0x00, 0x14, 0x00, 0x00, 0x00, 0x1c, 0x00, 0x00, 0x00,
  0x94, 0x00, 0x00, 0x00, 0xec, 0x00, 0x00, 0x00, 0x38, 0x12, 0x00, 0x00,
  0x48, 0x12, 0x00, 0x00, 0x80, 0x18, 0x00, 0x00, 0x03, 0x00, 0x00, 0x00,
  0x01, 0x00, 0x00, 0x00, 0x10, 0x00, 0x00, 0x00, 0x00, 0x00, 0x0a, 0x00,
  0x10, 0x00, 0x0c, 0x00, 0x08, 0x00, 0x04, 0x00, 0x0a, 0x00, 0x00, 0x00,
  0x0c, 0x00, 0x00, 0x00, 0x1c, 0x00, 0x00, 0x00, 0x3c, 0x00, 0x00, 0x00,
  0x0f, 0x00, 0x00, 0x00, 0x73, 0x65, 0x72, 0x76, 0x69, 0x6e, 0x67, 0x5f,
  0x64, 0x65, 0x66, 0x61, 0x75, 0x6c, 0x74, 0x00, 0x01, 0x00, 0x00, 0x00,
  0x04, 0x00, 0x00, 0x00, 0x94, 0xff, 0xff, 0xff, 0x0c, 0x00, 0x00, 0x00,
  0x04, 0x00, 0x00, 0x00, 0x08, 0x00, 0x00, 0x00, 0x6f, 0x75, 0x74, 0x70,
  0x75, 0x74, 0x5f, 0x30, 0x00, 0x00, 0x00, 0x00, 0x01, 0x00, 0x00, 0x00,
  0x04, 0x00, 0x00, 0x00, 0x76, 0xee, 0xff, 0xff, 0x04, 0x00, 0x00, 0x00,
  0x0b, 0x00, 0x00, 0x00, 0x69, 0x6e, 0x70, 0x75, 0x74, 0x5f, 0x6c, 0x61,
  0x79, 0x65, 0x72, 0x00, 0x02, 0x00, 0x00, 0x00, 0x34, 0x00, 0x00, 0x00,
  0x04, 0x00, 0x00, 0x00, 0xdc, 0xff, 0xff, 0xff, 0x0f, 0x00, 0x00, 0x00,
  0x04, 0x00, 0x00, 0x00, 0x13, 0x00, 0x00, 0x00, 0x43, 0x4f, 0x4e, 0x56,
  0x45, 0x52, 0x53, 0x49, 0x4f, 0x4e, 0x5f, 0x4d, 0x45, 0x54, 0x41, 0x44,
  0x41, 0x54, 0x41, 0x00, 0x08, 0x00, 0x0c, 0x00, 0x08, 0x00, 0x04, 0x00,
  0x08, 0x00, 0x00, 0x00, 0x0e, 0x00, 0x00, 0x00, 0x04, 0x00, 0x00, 0x00,
  0x13, 0x00, 0x00, 0x00, 0x6d, 0x69, 0x6e, 0x5f, 0x72, 0x75, 0x6e, 0x74,
  0x69, 0x6d, 0x65, 0x5f, 0x76, 0x65, 0x72, 0x73, 0x69, 0x6f, 0x6e, 0x00,
  0x10, 0x00, 0x00, 0x00, 0x48, 0x11, 0x00, 0x00, 0x40, 0x11, 0x00, 0x00,
  0x10, 0x11, 0x00, 0x00, 0xf8, 0x0e, 0x00, 0x00, 0xe8, 0x06, 0x00, 0x00,
  0xd4, 0x06, 0x00, 0x00, 0xa4, 0x06, 0x00, 0x00, 0x54, 0x06, 0x00, 0x00,
  0xc4, 0x05, 0x00, 0x00, 0xb4, 0x00, 0x00, 0x00, 0xac, 0x00, 0x00, 0x00,
  0xa4, 0x00, 0x00, 0x00, 0x9c, 0x00, 0x00, 0x00, 0x94, 0x00, 0x00, 0x00,
  0x74, 0x00, 0x00, 0x00, 0x04, 0x00, 0x00, 0x00, 0x2e, 0xef, 0xff, 0xff,
  0x04, 0x00, 0x00, 0x00, 0x60, 0x00, 0x00, 0x00, 0x0c, 0x00, 0x00, 0x00,
  0x08, 0x00, 0x0e, 0x00, 0x08, 0x00, 0x04, 0x00, 0x08, 0x00, 0x00, 0x00,
  0x10, 0x00, 0x00, 0x00, 0x28, 0x00, 0x00, 0x00, 0x00, 0x00, 0x06, 0x00,
  0x08, 0x00, 0x04, 0x00, 0x06, 0x00, 0x00, 0x00, 0x04, 0x00, 0x00, 0x00,
  0x01, 0x00, 0x00, 0x00, 0xea, 0x03, 0x00, 0x00, 0x0c, 0x00, 0x18, 0x00,
  0x14, 0x00, 0x10, 0x00, 0x0c, 0x00, 0x04, 0x00, 0x0c, 0x00, 0x00, 0x00,
  0x2c, 0x96, 0xc4, 0x91, 0x99, 0xcb, 0x3d, 0xfe, 0x02, 0x00, 0x00, 0x00,
  0x02, 0x00, 0x00, 0x00, 0x04, 0x00, 0x00, 0x00, 0x06, 0x00, 0x00, 0x00,
  0x32, 0x2e, 0x31, 0x39, 0x2e, 0x30, 0x00, 0x00, 0x9a, 0xef, 0xff, 0xff,
  0x04, 0x00, 0x00, 0x00, 0x10, 0x00, 0x00, 0x00, 0x31, 0x2e, 0x35, 0x2e,
  0x30, 0x00, 0x00, 0x00, 0x00, 0x00, 0x00, 0x00, 0x00, 0x00, 0x00, 0x00,
  0x64, 0xe9, 0xff, 0xff, 0x68, 0xe9, 0xff, 0xff, 0x6c, 0xe9, 0xff, 0xff,
  0x70, 0xe9, 0xff, 0xff, 0xc6, 0xef, 0xff, 0xff, 0x04, 0x00, 0x00, 0x00,
  0x00, 0x05, 0x00, 0x00, 0x40, 0x19, 0x28, 0xbd, 0x06, 0x72, 0xa0, 0xbe,
  0x2f, 0xc6, 0x3e, 0xbe, 0x7a, 0x97, 0x12, 0x3e, 0x88, 0x6d, 0x76, 0xbe,
  0x35, 0x0e, 0xb0, 0xbe, 0x68, 0xcf, 0x65, 0xbd, 0xc6, 0x42, 0x1f, 0x3e,
  0x57, 0x74, 0xa3, 0xbe, 0x12, 0x56, 0x5a, 0x3e, 0x71, 0x36, 0x3e, 0x3e,
  0xeb, 0xd5, 0x8a, 0xbe, 0x13, 0x0e, 0x90, 0x3d, 0x03, 0x27, 0x1c, 0x3e,
  0xfd, 0xa7, 0x3d, 0x3e, 0x05, 0x9a, 0x01, 0x3e, 0xeb, 0x8a, 0x88, 0xbe,
  0x8d, 0x68, 0x3b, 0x3e, 0x81, 0x4c, 0x0f, 0x3d, 0x97, 0xc3, 0xbd, 0xbd,
  0x05, 0x65, 0x21, 0x3e, 0xea, 0x7e, 0xc1, 0xbe, 0x65, 0x37, 0x97, 0x3e,
  0x12, 0x19, 0xd5, 0x3e, 0xd7, 0xcf, 0xe7, 0xbd, 0x15, 0xee, 0x36, 0xbe,
  0xd5, 0xe3, 0x7c, 0xbd, 0x99, 0x3d, 0x02, 0x3c, 0xb2, 0x71, 0x29, 0xbe,
  0xac, 0x5d, 0xf0, 0xbe, 0xde, 0xe4, 0x8f, 0x3e, 0x79, 0x56, 0xf9, 0xbd,
  0xee, 0x50, 0xe3, 0xbd, 0x49, 0x60, 0x9f, 0xbd, 0xc4, 0x30, 0x3d, 0x3e,
  0x34, 0xfc, 0xb8, 0xbd, 0x8c, 0x9f, 0x25, 0xbd, 0xf3, 0x76, 0x06, 0x3d,
  0x62, 0xd0, 0xaa, 0xbe, 0xf7, 0x83, 0x8d, 0x3e, 0x92, 0xdb, 0xb5, 0xbe,
  0x2b, 0x8a, 0x22, 0x3e, 0xfe, 0x2d, 0xcf, 0x3c, 0xbf, 0x4f, 0xb6, 0x3e,
  0x24, 0xde, 0xe4, 0xbc, 0x8f, 0xf7, 0xb2, 0x3d, 0x1f, 0xb9, 0x36, 0xbe,
  0x51, 0xf3, 0x30, 0x3e, 0x01, 0xaf, 0xbe, 0xbe, 0x64, 0x19, 0xa3, 0xbe,
  0x20, 0x0f, 0x83, 0xbc, 0xb2, 0x87, 0x3f, 0x3e, 0x38, 0x5b, 0xf1, 0xbd,
  0x36, 0xb9, 0xb2, 0xbe, 0x60, 0xa7, 0xb9, 0x3d, 0xf0, 0xdb, 0x99, 0xbe,
  0x65, 0xe8, 0x8f, 0x3e, 0xc6, 0xf9, 0x9c, 0xbe, 0xe0, 0xfb, 0xa8, 0xbe,
  0x10, 0x72, 0x91, 0xbc, 0xd4, 0x75, 0xbb, 0xbe, 0x1e, 0x40, 0x10, 0x3e,
  0x2f, 0xac, 0xa6, 0xbe, 0xc0, 0x33, 0x26, 0x3d, 0x32, 0x2f, 0xb7, 0xbe,
  0x45, 0x95, 0xb9, 0x3e, 0x4f, 0xf2, 0xb6, 0x3e, 0x2a, 0xbc, 0x31, 0xbe,
  0x0c, 0xb6, 0x40, 0xbe, 0x20, 0x80, 0x0d, 0xbc, 0x3d, 0x7d, 0xdc, 0x3d,
  0xfc, 0x54, 0x92, 0x3d, 0x4a, 0x90, 0x82, 0x3d, 0x86, 0xc3, 0xc7, 0x3d,
  0xca, 0x2d, 0x5b, 0x3e, 0xfd, 0x77, 0x85, 0xbe, 0x76, 0x38, 0x71, 0x3d,
  0xf4, 0xfe, 0x9d, 0x3c, 0x3b, 0xbc, 0xbe, 0xbd, 0xce, 0xbb, 0x8e, 0xbe,
  0x22, 0xec, 0xbf, 0xbe, 0x2c, 0x43, 0x89, 0x3e, 0xb7, 0x85, 0x5e, 0x3e,
  0x22, 0x64, 0xca, 0xbc, 0xa6, 0xee, 0x4c, 0xbc, 0xd2, 0x1e, 0x3f, 0xbd,
  0xb4, 0xf1, 0x66, 0x3e, 0x30, 0xc2, 0x11, 0x3e, 0x01, 0x3e, 0xba, 0x3d,
  0x1f, 0xde, 0xbf, 0x3c, 0xe0, 0x66, 0xa9, 0x3e, 0xe8, 0x7f, 0x20, 0xbd,
  0x3c, 0xab, 0xf4, 0x3d, 0x46, 0x67, 0xc6, 0xbd, 0x8c, 0xa7, 0xae, 0xbe,
  0x9b, 0x39, 0xac, 0xbe, 0xee, 0x13, 0x40, 0x3e, 0xf9, 0x78, 0x6e, 0x3d,
  0x97, 0xbe, 0xc2, 0x3e, 0xc2, 0x30, 0xb2, 0x3c, 0x73, 0x21, 0xae, 0xbe,
  0xc0, 0x95, 0x9a, 0x3b, 0x20, 0x00, 0x45, 0x3c, 0x7a, 0xc1, 0x05, 0xbe,
  0xe0, 0xd7, 0x83, 0xbc, 0xb0, 0x6e, 0x6b, 0xbe, 0xc7, 0x26, 0xc0, 0x3e,
  0x9a, 0x3f, 0x06, 0xbe, 0x60, 0x08, 0xc4, 0xbd, 0x28, 0x63, 0x83, 0xbd,
  0x19, 0x5b, 0x80, 0x3e, 0xb7, 0x8f, 0x13, 0x3e, 0x97, 0x6d, 0x6a, 0xbe,
  0xac, 0x14, 0xe3, 0x3d, 0x7a, 0x8c, 0x8a, 0x3e, 0x76, 0x8b, 0x1f, 0xbe,
  0x27, 0x68, 0xa5, 0xbe, 0x5b, 0x3b, 0x69, 0xbe, 0x80, 0xa0, 0xb2, 0x3d,
  0x7b, 0x66, 0xde, 0x3e, 0xfe, 0x12, 0xf5, 0x3b, 0xcc, 0xe7, 0x14, 0x3e,
  0x2a, 0x22, 0x66, 0x3e, 0xe0, 0x14, 0x95, 0x3d, 0x87, 0xdf, 0x62, 0xbe,
  0x43, 0x58, 0xa1, 0x3e, 0xb9, 0x95, 0x79, 0xbe, 0x40, 0xdf, 0xe2, 0xbe,
  0x95, 0x0f, 0xd0, 0xbe, 0x26, 0x0f, 0xa8, 0x3c, 0xb1, 0xad, 0xe0, 0x3c,
  0x85, 0xcd, 0xd4, 0xbd, 0xf5, 0xfd, 0xff, 0x3c, 0x89, 0x57, 0x6c, 0x3e,
  0x35, 0xf6, 0xa5, 0x3e, 0xfe, 0x1a, 0xe9, 0xbc, 0xd1, 0xf6, 0xa5, 0xbe,
  0x6c, 0x78, 0xe7, 0x3c, 0xf2, 0x6f, 0xbc, 0xbd, 0xa8, 0xfc, 0x86, 0xbe,
  0x56, 0xcf, 0xdc, 0xbd, 0x3b, 0xac, 0x91, 0x3e, 0xcd, 0x3a, 0xa7, 0xbe,
  0x56, 0x31, 0x07, 0x3d, 0x1c, 0xaf, 0x16, 0xbe, 0x0f, 0x67, 0xa1, 0xbd,
  0xb8, 0x2e, 0x99, 0xbd, 0x7b, 0x13, 0x9c, 0x3e, 0xec, 0xf7, 0x60, 0x3e,
  0x8f, 0xd5, 0x09, 0x3e, 0x54, 0xa9, 0xce, 0x3c, 0x38, 0x79, 0xe6, 0xbd,
  0xe3, 0x56, 0x20, 0xbe, 0xc8, 0xce, 0x33, 0x3e, 0x86, 0xe3, 0xa3, 0xbe,
  0xb9, 0xf1, 0xc6, 0x3d, 0xee, 0x04, 0x23, 0x3e, 0x0a, 0x43, 0xbd, 0x3e,
  0xf8, 0x31, 0xc5, 0x3e, 0x70, 0x42, 0x7a, 0xbe, 0x4c, 0x82, 0x59, 0xbe,
  0x2f, 0x5c, 0xeb, 0xbd, 0x10, 0xea, 0x36, 0x3e, 0x36, 0xdb, 0x7e, 0x3e,
  0xce, 0xbf, 0x68, 0xbc, 0x9d, 0xd6, 0x9c, 0xbd, 0x4e, 0xb9, 0x2a, 0xbe,
  0x70, 0x6b, 0xf1, 0xbd, 0xcf, 0x52, 0x6d, 0x3e, 0x7f, 0xb3, 0x87, 0x3e,
  0x26, 0x0c, 0xaf, 0x3e, 0xf0, 0xf7, 0x97, 0x3d, 0x53, 0xa2, 0x6d, 0xbe,
  0x5c, 0xb0, 0x0a, 0xbe, 0xb7, 0x52, 0xd1, 0xbe, 0xec, 0x6f, 0x07, 0xbd,
  0xa4, 0xe3, 0xbf, 0x3d, 0x83, 0x39, 0x2f, 0x3e, 0x34, 0xc4, 0xcd, 0x3d,
  0xe7, 0xe5, 0x8d, 0x3e, 0x77, 0x1e, 0xc9, 0x3d, 0x71, 0x20, 0x99, 0x3e,
  0x35, 0xf1, 0x84, 0x3e, 0x79, 0xe1, 0xd3, 0xbd, 0xb3, 0xfb, 0x21, 0xbe,
  0x4d, 0x3a, 0xa2, 0xbe, 0x41, 0x1e, 0x07, 0x3e, 0x7b, 0x84, 0xb9, 0xbe,
  0x5e, 0xe8, 0x19, 0x3e, 0xb4, 0xd1, 0xb0, 0xbe, 0xbd, 0x55, 0x8d, 0x3d,
  0x77, 0x8c, 0x86, 0xbe, 0xc8, 0xff, 0x5b, 0x3e, 0x65, 0xb6, 0x85, 0x3e,
  0xde, 0x0a, 0xba, 0xbb, 0x53, 0x05, 0xe5, 0xbd, 0xae, 0xd1, 0x0c, 0xbe,
  0xc0, 0xac, 0x6a, 0xbe, 0x0f, 0x75, 0x6d, 0x3e, 0xcc, 0x02, 0xce, 0xbe,
  0x5e, 0xa2, 0xd7, 0xbd, 0x2b, 0x2f, 0xb1, 0xbc, 0x78, 0x07, 0x82, 0x3e,
  0x94, 0x4a, 0x50, 0x3e, 0x84, 0xac, 0x46, 0xbd, 0xa4, 0x79, 0x7e, 0x3e,
  0x71, 0x1d, 0x73, 0x3e, 0x8c, 0x44, 0x94, 0xbe, 0x82, 0x58, 0x9a, 0xbe,
  0xce, 0x47, 0xb6, 0xbe, 0xab, 0xd4, 0xf1, 0x3d, 0x89, 0x84, 0x8e, 0x3d,
  0x4d, 0xa7, 0xc5, 0x3e, 0xe9, 0x94, 0x87, 0xbe, 0x3d, 0xf9, 0xca, 0x3c,
  0xce, 0xe6, 0xd8, 0xbd, 0xa5, 0xae, 0x28, 0xbe, 0xd5, 0x52, 0x38, 0xbe,
  0x1e, 0xc2, 0x81, 0xbe, 0x99, 0x0a, 0x97, 0xbe, 0x45, 0x68, 0x8a, 0x3d,
  0x6a, 0x07, 0x8d, 0x3d, 0xc0, 0x04, 0x95, 0x3d, 0x29, 0xfc, 0x88, 0xbc,
  0x83, 0xa5, 0x26, 0x3e, 0xea, 0x1f, 0x24, 0x3e, 0xc0, 0xfe, 0x60, 0x3e,
  0xf6, 0x7d, 0x04, 0x3d, 0xcc, 0x3a, 0x40, 0xbe, 0x67, 0x2b, 0xd3, 0x3e,
  0x0b, 0x0e, 0xa6, 0xbc, 0x2a, 0xd4, 0x83, 0xbd, 0x4a, 0xb9, 0x71, 0x3d,
  0xd3, 0x36, 0x06, 0x3d, 0x9a, 0x9a, 0x8c, 0x3d, 0x62, 0xfb, 0x6b, 0x3e,
  0x57, 0xe5, 0xc3, 0xbe, 0x34, 0x61, 0x0a, 0x3d, 0xee, 0x13, 0xa2, 0xbe,
  0x9f, 0x31, 0xba, 0xbe, 0x78, 0xaa, 0x98, 0x3d, 0xc5, 0xdc, 0x75, 0xbe,
  0xe0, 0xec, 0x1b, 0xbc, 0x00, 0xf6, 0x63, 0x3d, 0xfd, 0x27, 0xa4, 0x3e,
  0x5a, 0xa0, 0x00, 0x3e, 0x06, 0x19, 0x96, 0xbe, 0x37, 0x69, 0xb9, 0xbe,
  0x2a, 0x5c, 0xba, 0xbe, 0x82, 0x60, 0xb7, 0xbe, 0x30, 0x2e, 0x81, 0xbd,
  0x34, 0x2b, 0x17, 0x3e, 0x12, 0x36, 0x28, 0xbe, 0x77, 0xdc, 0xdd, 0xbd,
  0x4b, 0x9d, 0xc3, 0xbd, 0x8a, 0x55, 0x9a, 0x3e, 0x6a, 0xf6, 0x86, 0xbe,
  0x7e, 0x71, 0x89, 0x3d, 0x57, 0x86, 0xb1, 0x3d, 0x0e, 0xa3, 0xb5, 0x3e,
  0x0b, 0x0b, 0x55, 0x3e, 0x82, 0x26, 0x14, 0xbe, 0xed, 0xb8, 0x98, 0x3e,
  0x98, 0x0d, 0x58, 0x3e, 0xd8, 0xdb, 0x27, 0xbe, 0x95, 0x77, 0x2f, 0xbe,
  0x34, 0x77, 0x6b, 0xbe, 0x7f, 0x41, 0x6f, 0x3d, 0x3c, 0x4c, 0xe4, 0xbe,
  0x55, 0xed, 0xc6, 0xbd, 0xb1, 0xb9, 0x45, 0x3e, 0xdf, 0xb7, 0x50, 0x3e,
  0x05, 0xc4, 0x3d, 0xbe, 0xdb, 0x59, 0x36, 0x3e, 0xfc, 0xc5, 0xdf, 0x3c,
  0xf7, 0x86, 0x2e, 0xbd, 0x3f, 0x7d, 0x76, 0x3e, 0x77, 0x01, 0x42, 0xbe,
  0xf9, 0x11, 0xfb, 0x3c, 0xf8, 0xaf, 0x30, 0x3e, 0x04, 0xfc, 0xa5, 0xbe,
  0xe2, 0x66, 0x0e, 0x3e, 0x3e, 0x9c, 0x0c, 0x3e, 0xd4, 0xdd, 0x19, 0xbe,
  0x11, 0xed, 0x54, 0xbe, 0xa4, 0x88, 0x81, 0xbe, 0xe1, 0xa0, 0x8f, 0xbe,
  0x5c, 0x93, 0x82, 0x3d, 0x40, 0x96, 0x06, 0xbe, 0x14, 0x05, 0xad, 0xbe,
  0x58, 0x01, 0x69, 0xbe, 0xbd, 0xcf, 0xbc, 0xbe, 0xe8, 0xfe, 0xac, 0x3e,
  0x55, 0xb2, 0xc1, 0x3c, 0x8c, 0x76, 0x9c, 0x3e, 0x1c, 0x53, 0xbc, 0x3e,
  0x49, 0xd0, 0x86, 0xbe, 0xfd, 0x2c, 0x37, 0xbe, 0x7c, 0xef, 0x09, 0x3e,
  0x1e, 0xe9, 0xc6, 0xbe, 0xd7, 0xe3, 0x9c, 0xbe, 0x24, 0x55, 0xc2, 0xbd,
  0x40, 0xe6, 0x50, 0x3c, 0xd2, 0x5e, 0xa7, 0xbe, 0x6c, 0xd2, 0x6b, 0xbe,
  0xb0, 0xdc, 0x0e, 0x3d, 0x40, 0x97, 0x5e, 0xbd, 0xe6, 0xd1, 0x95, 0xbe,
  0x8e, 0xeb, 0x5c, 0xbe, 0x7a, 0x56, 0x62, 0x3e, 0x94, 0x86, 0x52, 0x3e,
  0xd8, 0x01, 0xf8, 0xbd, 0x26, 0x19, 0xf1, 0x3d, 0x3a, 0x1c, 0x9a, 0xbe,
  0x9f, 0x41, 0x06, 0xbd, 0x6c, 0xda, 0x40, 0x3e, 0x60, 0xfa, 0x1f, 0xbe,
  0x3b, 0x88, 0xf9, 0xbd, 0x11, 0xc7, 0xd7, 0x3e, 0x79, 0x9b, 0x9a, 0x3d,
  0xd2, 0xf4, 0xff, 0xff, 0x04, 0x00, 0x00, 0x00, 0x80, 0x00, 0x00, 0x00,
  0x00, 0x00, 0x00, 0x00, 0xc1, 0xea, 0xb3, 0xbd, 0xc6, 0x65, 0x3b, 0x3e,
  0x61, 0x29, 0xf4, 0xbc, 0x51, 0xc0, 0x5a, 0x3e, 0x00, 0x00, 0x00, 0x00,
  0x00, 0x00, 0x00, 0x00, 0x76, 0xb3, 0x4c, 0x3c, 0x9b, 0xba, 0x4a, 0xbe,
  0x79, 0x68, 0xe1, 0xbd, 0x00, 0x00, 0x00, 0x00, 0x87, 0xb4, 0x01, 0xbe,
  0x0f, 0xce, 0x90, 0x3d, 0x10, 0xe5, 0xe5, 0x3d, 0x2a, 0xe1, 0x19, 0xbe,
  0x74, 0xc6, 0x40, 0xbe, 0xef, 0x17, 0x01, 0xbe, 0xf3, 0x60, 0x24, 0xbe,
  0xc9, 0xf3, 0xdc, 0x3d, 0x4a, 0x32, 0x66, 0x3e, 0xda, 0x5c, 0xb4, 0x3d,
  0xba, 0x73, 0xf1, 0x3d, 0xc8, 0x55, 0x3e, 0xbe, 0x55, 0x1c, 0xba, 0xbc,
  0x00, 0x00, 0x00, 0x00, 0xef, 0x89, 0x11, 0xbe, 0x75, 0xd4, 0x4d, 0x3d,
  0x26, 0xf4, 0x45, 0xbe, 0x00, 0x00, 0x00, 0x00, 0x04, 0x0f, 0x0c, 0x3e,
  0x00, 0x00, 0x00, 0x00, 0x4a, 0x29, 0xf9, 0xbd, 0x5e, 0xf5, 0xff, 0xff,
  0x04, 0x00, 0x00, 0x00, 0x40, 0x00, 0x00, 0x00, 0x9f, 0x13, 0x14, 0x3d,
  0xc2, 0xce, 0x95, 0x3d, 0x7f, 0x1c, 0x4f, 0x3d, 0x4d, 0xa2, 0x82, 0x3d,
  0xf8, 0xcc, 0x24, 0x3d, 0x41, 0x7e, 0xc7, 0x3d, 0x1e, 0xbe, 0xd3, 0x3d,
  0x7c, 0x65, 0x11, 0x3d, 0xdd, 0xe7, 0xe2, 0x3c, 0x78, 0xea, 0x83, 0x3d,
  0xf5, 0x19, 0x83, 0x3d, 0xaa, 0x2b, 0x35, 0x3d, 0xde, 0xd4, 0xc0, 0xbd,
  0x9a, 0x42, 0xc8, 0x3d, 0x90, 0xa0, 0xce, 0x3d, 0xc4, 0xb7, 0x0e, 0x3e,
  0xaa, 0xf5, 0xff, 0xff, 0x04, 0x00, 0x00, 0x00, 0x20, 0x00, 0x00, 0x00,
  0x55, 0x1f, 0xe6, 0xbc, 0xd5, 0x74, 0x81, 0xbd, 0x06, 0xf2, 0xcc, 0xbd,
  0xf3, 0xdd, 0x1f, 0x3e, 0xb4, 0x67, 0xbe, 0x3e, 0x06, 0x50, 0x08, 0x3e,
  0x38, 0xe1, 0xb8, 0x3e, 0x40, 0xa0, 0x4c, 0xbd, 0xd6, 0xf5, 0xff, 0xff,
  0x04, 0x00, 0x00, 0x00, 0x04, 0x00, 0x00, 0x00, 0xcc, 0xdf, 0x36, 0x3e,
  0xe6, 0xf5, 0xff, 0xff, 0x04, 0x00, 0x00, 0x00, 0x00, 0x08, 0x00, 0x00,
  0x41, 0x21, 0x31, 0xbe, 0x5f, 0xdb, 0x48, 0xbd, 0xc1, 0xe2, 0x48, 0x3f,
  0x74, 0xd6, 0xae, 0x3e, 0x29, 0x7b, 0x5f, 0x3e, 0x5c, 0xe8, 0x12, 0x3e,
  0x52, 0x3e, 0x69, 0x3e, 0xaa, 0x65, 0xf0, 0xbb, 0xb3, 0x2f, 0x90, 0xbe,
  0x96, 0xda, 0xb9, 0xbe, 0xa8, 0x24, 0xc3, 0xbd, 0x9e, 0x92, 0x4a, 0x3e,
  0xe9, 0x28, 0xfe, 0x3e, 0x96, 0xd0, 0x51, 0x3e, 0x8d, 0x32, 0xc6, 0xbd,
  0x93, 0x34, 0x96, 0x3e, 0x54, 0x6d, 0x74, 0x3e, 0xf5, 0x33, 0xd0, 0x3c,
  0x90, 0xb3, 0xe4, 0x3e, 0x6f, 0xfe, 0xe0, 0x3e, 0x5b, 0x2c, 0xe8, 0x3d,
  0x04, 0x17, 0x47, 0x3f, 0x4a, 0x5c, 0x6e, 0xbd, 0xae, 0x65, 0x5a, 0xbd,
  0x7c, 0x4d, 0x99, 0xbd, 0x47, 0x83, 0xb9, 0xbe, 0xfd, 0x70, 0xb0, 0x3e,
  0x16, 0xe3, 0x24, 0xbe, 0x93, 0xdf, 0x60, 0xbe, 0x2c, 0x13, 0x5d, 0x3d,
  0x40, 0x8f, 0xa1, 0x3d, 0x0e, 0x98, 0x8e, 0xbe, 0x54, 0x19, 0xcd, 0x3d,
  0xbf, 0x0a, 0x86, 0xbe, 0x05, 0x7e, 0xb7, 0xbe, 0xeb, 0xfc, 0x82, 0xbc,
  0xd2, 0xe6, 0xac, 0xbe, 0xd7, 0x21, 0x5d, 0xbe, 0x7d, 0x4d, 0x58, 0xbe,
  0x0b, 0x85, 0x35, 0xbe, 0xad, 0xd0, 0x83, 0xbe, 0x99, 0xf0, 0xe7, 0x3d,
  0x26, 0x79, 0x7f, 0x3e, 0x4c, 0x87, 0x31, 0x3d, 0xf7, 0x2a, 0x59, 0xbd,
  0xed, 0x71, 0x96, 0xbe, 0x10, 0x03, 0xa0, 0x3e, 0x11, 0x62, 0xc1, 0x3d,
  0x0c, 0x65, 0xf2, 0xbd, 0x24, 0x09, 0xa2, 0x3e, 0x7c, 0xa0, 0x1d, 0xbe,
  0x5c, 0xc7, 0xcd, 0xbe, 0x36, 0x69, 0xd9, 0xbe, 0xef, 0x85, 0x2a, 0xbc,
  0x83, 0x9a, 0x81, 0x3e, 0x71, 0xdd, 0x46, 0xbd, 0xf0, 0xa4, 0xbc, 0xbc,
  0x23, 0xcb, 0xea, 0xbd, 0x21, 0xaa, 0xd0, 0x3d, 0x5a, 0x9b, 0x25, 0x3e,
  0x20, 0xe4, 0xaa, 0x3d, 0xd2, 0x4a, 0xd7, 0xbe, 0xa2, 0x0a, 0x5a, 0xbe,
  0x87, 0x7c, 0xad, 0x3e, 0xe2, 0x7d, 0x4c, 0x3e, 0x68, 0x32, 0x51, 0x37,
  0xae, 0xf0, 0x46, 0xbb, 0x89, 0xe9, 0x25, 0x3e, 0x8c, 0x85, 0xb5, 0xbe,
  0x29, 0x2e, 0xa0, 0x3e, 0x1a, 0x64, 0xf4, 0xbd, 0x0d, 0x54, 0x65, 0xbd,
  0x7e, 0x47, 0x83, 0x3e, 0xe1, 0x36, 0x8c, 0x3e, 0x43, 0xdc, 0x9c, 0xbe,
  0x6f, 0x38, 0x57, 0x3d, 0xb1, 0x40, 0x99, 0xbe, 0x2b, 0xfd, 0x02, 0xbd,
  0xf5, 0xd9, 0x2d, 0xbd, 0x63, 0x7b, 0x6d, 0xbe, 0x77, 0x0c, 0xa7, 0x3e,
  0x68, 0xf4, 0xca, 0x3e, 0xbb, 0x6a, 0x57, 0xbe, 0x5e, 0x7b, 0x39, 0xbe,
  0xd5, 0xf7, 0x7d, 0xbe, 0xd9, 0x77, 0xeb, 0xbe, 0xc8, 0xee, 0x2b, 0xbc,
  0xf9, 0xfc, 0x81, 0x3e, 0xa8, 0xc1, 0x0b, 0xbd, 0x10, 0x8e, 0xde, 0x3e,
  0x5d, 0x27, 0x96, 0xbd, 0xbe, 0x66, 0xaf, 0xbd, 0xa8, 0x62, 0x5b, 0x3d,
  0x59, 0x6b, 0x09, 0xbe, 0xfd, 0x8c, 0xad, 0xbe, 0x4d, 0x99, 0x2f, 0x3e,
  0xf1, 0xe0, 0x60, 0xbe, 0xa8, 0x03, 0xdb, 0x3b, 0x02, 0x19, 0x04, 0xbe,
  0xa1, 0x37, 0x5d, 0x3d, 0x7f, 0x43, 0xce, 0xbe, 0x3d, 0xa7, 0xb0, 0x3e,
  0x65, 0x01, 0x4e, 0xbe, 0x31, 0xa7, 0x83, 0xbd, 0x4c, 0x50, 0x0d, 0xbe,
  0x66, 0xd9, 0x0e, 0x3e, 0xed, 0x92, 0x8b, 0x3e, 0x26, 0x51, 0xb0, 0x3e,
  0xb5, 0x1d, 0xa0, 0xbe, 0x5d, 0xa4, 0x4a, 0x3d, 0x3b, 0xc2, 0x9b, 0x3e,
  0xa4, 0x32, 0x92, 0x3e, 0x7e, 0xa2, 0x11, 0x3d, 0x00, 0x17, 0x16, 0x3e,
  0xfa, 0x3a, 0xe7, 0xbd, 0x8d, 0x6c, 0xba, 0xbe, 0x20, 0x26, 0x87, 0x3d,
  0x2f, 0x0f, 0xcc, 0xbe, 0x44, 0x77, 0xe7, 0x3d, 0x60, 0x97, 0xa0, 0xbe,
  0x3c, 0xbf, 0x16, 0xbe, 0xb5, 0x02, 0xcc, 0x3e, 0x9b, 0xd6, 0x55, 0x3e,
  0xba, 0x40, 0xee, 0xbd, 0x59, 0xd4, 0x9d, 0xbe, 0xed, 0x4c, 0xb9, 0xbe,
  0x77, 0x77, 0x01, 0xbe, 0x5d, 0x0a, 0x4a, 0xbd, 0x08, 0x7a, 0xe5, 0x3d,
  0xd3, 0xc7, 0x0d, 0x3e, 0xb6, 0x71, 0x08, 0xbf, 0x1c, 0x4c, 0x9d, 0xbc,
  0x2f, 0xf5, 0x99, 0xbe, 0x7e, 0xd8, 0x7e, 0x3e, 0x1e, 0xd1, 0x27, 0x3e,
  0x0d, 0x37, 0x42, 0xbd, 0xee, 0x0b, 0xa6, 0xbe, 0xad, 0x6d, 0x2c, 0xbe,
  0x0f, 0x36, 0x55, 0xbe, 0x5b, 0xc6, 0x13, 0xbc, 0xcf, 0xc4, 0x18, 0xbb,
  0xb2, 0xbf, 0x4b, 0xbe, 0x0e, 0x6e, 0x29, 0xbe, 0xe6, 0x5d, 0x29, 0x3e,
  0x37, 0xae, 0x2a, 0x3e, 0x6a, 0x28, 0x01, 0x3f, 0x3e, 0xd9, 0x72, 0xbe,
  0xae, 0xc5, 0xdb, 0xbe, 0x8a, 0x8e, 0x62, 0xbe, 0x2c, 0x0a, 0xf4, 0xbd,
  0xf5, 0x3a, 0xa2, 0x3e, 0x90, 0xea, 0x80, 0xbe, 0xd6, 0x42, 0x04, 0x3e,
  0x3f, 0x4c, 0x20, 0x3e, 0x02, 0x08, 0x7f, 0xbe, 0x30, 0x23, 0x67, 0xbe,
  0xac, 0x12, 0xf8, 0xbd, 0xa4, 0x19, 0x64, 0xbd, 0x00, 0x77, 0xfb, 0x3d,
  0x34, 0x1e, 0x57, 0x3e, 0x68, 0x24, 0xcf, 0xbd, 0x45, 0xfb, 0x2f, 0xbb,
  0x7e, 0xfd, 0xc7, 0xbd, 0x1c, 0x67, 0x7d, 0x3c, 0xee, 0xb1, 0x1e, 0xbe,
  0x58, 0x83, 0x9e, 0xbe, 0xa6, 0xed, 0x4c, 0x3e, 0xc1, 0xd1, 0x6e, 0xbe,
  0x10, 0x98, 0xca, 0x3e, 0xce, 0x8c, 0xdf, 0x3e, 0x90, 0x35, 0xb5, 0xbc,
  0x58, 0xe9, 0xf6, 0xbd, 0xd6, 0x2b, 0x17, 0xbc, 0xc2, 0xb0, 0x46, 0xbe,
  0xec, 0xda, 0xbd, 0x3e, 0xbd, 0x6f, 0x9f, 0x3e, 0xc1, 0xb1, 0xfb, 0x3e,
  0xd1, 0xb3, 0xc3, 0x3e, 0xed, 0x80, 0x78, 0xbe, 0x5c, 0x1c, 0x5a, 0xbe,
  0x5a, 0xaf, 0xdc, 0xbe, 0x87, 0x68, 0xb0, 0xbe, 0xa7, 0x3e, 0x5f, 0x3e,
  0xa6, 0xe0, 0x2a, 0xbe, 0x88, 0x12, 0x76, 0xbe, 0x1d, 0xcf, 0xa2, 0x3b,
  0xb5, 0xd9, 0xff, 0xbd, 0x74, 0x34, 0xbe, 0x3c, 0x48, 0x69, 0x2e, 0x3d,
  0xef, 0x7d, 0x8e, 0xbe, 0xd2, 0x67, 0x11, 0x3e, 0xd9, 0x8e, 0xe1, 0x3e,
  0xa4, 0x10, 0xae, 0xbe, 0xfa, 0x6d, 0x53, 0x3e, 0xb8, 0xcf, 0x9b, 0xbe,
  0xf2, 0xa1, 0x7b, 0xbe, 0xb0, 0x15, 0xba, 0xbe, 0x32, 0x97, 0xa9, 0xbe,
  0xc8, 0x99, 0x82, 0xbd, 0x3c, 0x02, 0xde, 0xba, 0x31, 0x50, 0xf7, 0xbd,
  0xb8, 0x0d, 0x9b, 0x3e, 0x49, 0xd8, 0x82, 0x3e, 0x08, 0xde, 0x53, 0xbe,
  0x34, 0x47, 0x38, 0xbd, 0x86, 0xda, 0x57, 0xbe, 0x58, 0x28, 0xb6, 0x3e,
  0x5f, 0xc6, 0x9e, 0x3e, 0x15, 0xdb, 0xc7, 0x3e, 0x97, 0xc4, 0xe3, 0x3e,
  0x3d, 0x18, 0xdc, 0x3d, 0x8c, 0xa7, 0xd6, 0xbd, 0xfb, 0x42, 0xb9, 0xbe,
  0x87, 0x50, 0xee, 0xbe, 0x77, 0xca, 0x48, 0xbd, 0x4f, 0xd7, 0xa2, 0x3e,
  0x5f, 0x46, 0x84, 0x3e, 0xed, 0x07, 0x93, 0x3e, 0x0b, 0x1e, 0x3e, 0x3e,
  0x80, 0x0f, 0xfd, 0x3d, 0x3d, 0x17, 0x9d, 0x3e, 0xa6, 0x32, 0xb6, 0xbe,
  0xd4, 0x58, 0x80, 0xbd, 0x83, 0x1f, 0xa0, 0x3d, 0x6a, 0xfd, 0x62, 0x3e,
  0xb1, 0x7f, 0x1e, 0x3e, 0xf1, 0xc6, 0xab, 0xbc, 0x1b, 0x4f, 0x03, 0xbe,
  0x4f, 0x98, 0x4a, 0xbe, 0x00, 0x7d, 0x87, 0x3a, 0xc4, 0xf7, 0xed, 0x3d,
  0xd9, 0x21, 0x02, 0x3e, 0x20, 0x56, 0x56, 0x3d, 0xc9, 0xb5, 0x14, 0x3e,
  0xae, 0xc5, 0xe7, 0xbd, 0x1d, 0x96, 0xae, 0x3e, 0x7a, 0xd4, 0xa7, 0xbe,
  0x1d, 0xf8, 0x4f, 0x3e, 0x62, 0xbb, 0x10, 0xbd, 0xf4, 0xfc, 0x98, 0x3e,
  0xca, 0xa0, 0x27, 0x3e, 0x20, 0x58, 0x88, 0x3e, 0x6a, 0x01, 0xec, 0x3d,
  0x5a, 0x1d, 0xea, 0xbd, 0x13, 0x6a, 0x5a, 0xbe, 0x0f, 0xb6, 0x2e, 0xbe,
  0x7d, 0x89, 0xa4, 0x3c, 0x0d, 0xed, 0xbd, 0x3d, 0x2d, 0xc9, 0xa8, 0x3e,
  0x41, 0x2b, 0xe3, 0x3d, 0x9a, 0xcf, 0x45, 0xbe, 0x54, 0x8e, 0x9a, 0x3d,
  0xbb, 0xd4, 0x41, 0xbe, 0x7f, 0x48, 0x09, 0xbe, 0x98, 0x08, 0x9c, 0x3d,
  0x8a, 0x28, 0x32, 0x3e, 0x81, 0xa2, 0x52, 0xbe, 0x25, 0xfe, 0x76, 0xbe,
  0x68, 0xff, 0xa5, 0xbe, 0x3a, 0x67, 0x9b, 0xbe, 0xc4, 0xa8, 0x8d, 0xbe,
  0x43, 0x04, 0x9e, 0x3e, 0x69, 0x38, 0x3a, 0xbe, 0x5f, 0xe3, 0xe9, 0x3d,
  0xbc, 0xa4, 0xb4, 0x3e, 0x81, 0x95, 0x58, 0x3e, 0xfa, 0xbc, 0x3d, 0x3e,
  0x87, 0x4d, 0x83, 0x3d, 0x74, 0xd9, 0x10, 0x3e, 0xcf, 0xca, 0x85, 0x3c,
  0x94, 0xa5, 0xc2, 0x3e, 0x06, 0x4a, 0x2f, 0xbe, 0x51, 0x77, 0x0f, 0x3e,
  0x0f, 0x12, 0x35, 0x3d, 0x4f, 0xc6, 0xb4, 0xbe, 0xd8, 0x6e, 0x80, 0x3d,
  0x58, 0xb7, 0x88, 0xbd, 0xb1, 0x96, 0x8e, 0xbe, 0xfc, 0x9b, 0x1c, 0x3d,
  0x10, 0xcc, 0x10, 0xbe, 0x77, 0x5b, 0x92, 0x3e, 0xf5, 0xcb, 0x08, 0x3e,
  0xe2, 0x7b, 0xa2, 0xbd, 0xec, 0x8f, 0x8e, 0xbe, 0x58, 0x44, 0xad, 0xbe,
  0xe2, 0xc4, 0x9b, 0xbe, 0x2e, 0x7c, 0x94, 0xbe, 0xbd, 0x11, 0x3b, 0x3e,
  0xd9, 0x4e, 0xac, 0x3e, 0x01, 0xc2, 0x23, 0x3c, 0xe5, 0x8e, 0x15, 0xbe,
  0xa0, 0x9f, 0xe4, 0x3d, 0x2e, 0x51, 0x91, 0x3d, 0x20, 0xac, 0x5e, 0xbc,
  0x50, 0x35, 0x7e, 0xbe, 0x20, 0x06, 0x97, 0xbe, 0x00, 0x58, 0x6e, 0x3e,
  0x0f, 0x46, 0x0a, 0xbb, 0x40, 0x8e, 0x1e, 0xbe, 0x36, 0x83, 0xf8, 0x3e,
  0x06, 0xef, 0xd8, 0xbe, 0xd2, 0xfc, 0x3f, 0xbe, 0x24, 0xa9, 0x0d, 0xbe,
  0x67, 0xca, 0x1a, 0x3b, 0x7c, 0x91, 0xb6, 0xbd, 0xa9, 0xab, 0x5d, 0x3d,
  0x83, 0xa2, 0x08, 0x3e, 0x45, 0x9f, 0xa1, 0x3d, 0x13, 0x2c, 0x5d, 0xbd,
  0xb2, 0xd8, 0x81, 0x3d, 0xfb, 0xb2, 0x59, 0x3e, 0xa7, 0x2f, 0x00, 0xbe,
  0xab, 0x0d, 0xaf, 0x3e, 0xa9, 0x68, 0x72, 0x3e, 0xfa, 0xcb, 0xbf, 0xbe,
  0xd4, 0x83, 0x95, 0x3e, 0xfe, 0x8b, 0x9a, 0xbe, 0xda, 0xd5, 0x38, 0x3c,
  0x43, 0xd8, 0x64, 0xbe, 0x3b, 0x1a, 0x0a, 0x3e, 0xb0, 0xd1, 0x7b, 0x3d,
  0x34, 0xb1, 0xca, 0x3d, 0x84, 0xa9, 0xde, 0x3c, 0x7b, 0xf9, 0x6b, 0x3e,
  0xc7, 0x54, 0x4d, 0xbd, 0x67, 0xc5, 0x44, 0xbe, 0x72, 0xf3, 0x0b, 0x3e,
  0x43, 0x4b, 0x74, 0x3d, 0xfa, 0xed, 0x74, 0x3e, 0xf3, 0x17, 0x95, 0x3d,
  0xb0, 0x7c, 0xae, 0xbd, 0xf2, 0xec, 0x8f, 0x3e, 0x55, 0xde, 0x33, 0xbe,
  0x5b, 0xff, 0xb7, 0xbe, 0x6a, 0x56, 0x4b, 0x3c, 0x8f, 0xc0, 0x2e, 0x3e,
  0xb6, 0x24, 0xb1, 0x3d, 0xb9, 0x64, 0xc5, 0x3e, 0x19, 0x33, 0xb9, 0xbd,
  0x68, 0x3b, 0x89, 0xbd, 0x2e, 0x58, 0x20, 0xbe, 0x77, 0x64, 0x86, 0xbe,
  0xa8, 0xb1, 0x06, 0xbf, 0x09, 0xa8, 0xa4, 0x3e, 0xf7, 0xab, 0x96, 0x3e,
  0x8b, 0x44, 0x57, 0x3d, 0x28, 0x35, 0xcc, 0x3d, 0xc9, 0xf6, 0x70, 0x3d,
  0x38, 0xe5, 0xe6, 0xbd, 0xa7, 0x30, 0x63, 0xbd, 0xce, 0xd4, 0xe5, 0xbd,
  0x40, 0x44, 0x40, 0x3e, 0xa6, 0x8e, 0x80, 0xbe, 0xed, 0x0c, 0x35, 0x3e,
  0xe7, 0x24, 0x18, 0xbf, 0x05, 0xc4, 0x23, 0xbe, 0xbb, 0x92, 0xf0, 0xbe,
  0x20, 0x9d, 0xa3, 0xbc, 0x9e, 0x5a, 0x2d, 0x3e, 0x57, 0xda, 0x39, 0xbe,
  0xa6, 0x5c, 0x43, 0x3e, 0x67, 0x7d, 0x3d, 0xbe, 0x8e, 0x56, 0x6b, 0xbe,
  0x35, 0x58, 0xba, 0xbd, 0x6a, 0xfc, 0x84, 0x3d, 0xf0, 0xcd, 0x83, 0xbe,
  0x64, 0x39, 0x13, 0xbe, 0x4e, 0xd4, 0x5e, 0xbe, 0x9e, 0x0b, 0xc8, 0x3e,
  0x5f, 0x88, 0x33, 0x3d, 0xcf, 0xee, 0x83, 0xbe, 0x68, 0xc0, 0x6c, 0xbe,
  0xc7, 0xc5, 0x7b, 0xbd, 0x00, 0x05, 0xbc, 0xbd, 0x74, 0x77, 0xca, 0x3d,
  0xc2, 0xef, 0xa4, 0xbe, 0x3a, 0x17, 0x29, 0x3e, 0x71, 0x86, 0x82, 0x3e,
  0x7f, 0x20, 0x5e, 0x3d, 0x4e, 0x63, 0x42, 0x3e, 0x10, 0x46, 0xdf, 0x3c,
  0x02, 0x5c, 0x86, 0xbe, 0x36, 0xb3, 0x1b, 0xbe, 0x0c, 0x45, 0xbc, 0x3e,
  0xa0, 0x0d, 0xd8, 0xbd, 0x7b, 0xb5, 0x52, 0xbe, 0x72, 0x6b, 0x92, 0xbe,
  0xb0, 0xc6, 0xd8, 0xbd, 0x21, 0x33, 0x10, 0xbe, 0x28, 0x65, 0x16, 0xbd,
  0x90, 0x71, 0x1f, 0x3d, 0xa6, 0x42, 0x9e, 0xbe, 0x7c, 0x7a, 0xe5, 0xbd,
  0x1b, 0xae, 0xb0, 0xbe, 0x81, 0xfa, 0x3f, 0xbe, 0xa1, 0xbc, 0x70, 0x3e,
  0x02, 0xc9, 0x36, 0x3e, 0xcd, 0x6d, 0xb7, 0xbe, 0x98, 0x5e, 0xa9, 0xbe,
  0xd8, 0x63, 0x6d, 0x3e, 0x83, 0x37, 0xf0, 0x3d, 0x6c, 0xff, 0x2e, 0xbe,
  0xc7, 0x01, 0xb7, 0xbe, 0xf9, 0x31, 0xd2, 0xbe, 0x4f, 0x79, 0x18, 0xbe,
  0xcd, 0x71, 0x54, 0x3d, 0x57, 0x50, 0x30, 0xbe, 0x54, 0x7d, 0x9b, 0x3d,
  0x3b, 0x4c, 0x4f, 0xbe, 0x71, 0x8a, 0x0c, 0x3e, 0xf2, 0x7e, 0x75, 0x3d,
  0x20, 0xe5, 0xb6, 0xbd, 0x40, 0x87, 0xc9, 0xbb, 0x03, 0xe4, 0x8c, 0xbe,
  0x36, 0x6f, 0xe8, 0xbd, 0x14, 0xd1, 0x0d, 0x3e, 0x86, 0xe2, 0x0e, 0x3e,
  0xb0, 0x4d, 0xdb, 0x3e, 0xff, 0x97, 0x39, 0xbf, 0x03, 0xeb, 0x07, 0x3e,
  0x11, 0x02, 0xf2, 0xbe, 0x55, 0x45, 0x8e, 0x3e, 0xf2, 0x1a, 0x3d, 0x3e,
  0xde, 0xb8, 0x83, 0xbe, 0x75, 0x3f, 0x0a, 0xbe, 0x09, 0xbb, 0x40, 0x3d,
  0xd2, 0x0b, 0x6c, 0xbe, 0x83, 0x2c, 0x9c, 0x3d, 0xd1, 0x63, 0x9f, 0xbc,
  0x0e, 0xb7, 0x98, 0xbe, 0x93, 0xcf, 0x06, 0x3f, 0x7d, 0xeb, 0xa2, 0xbc,
  0xf8, 0xd5, 0x26, 0x3e, 0xd9, 0x75, 0xf5, 0x3e, 0xc3, 0x02, 0xcd, 0xbe,
  0xc7, 0x4b, 0x79, 0xbe, 0xf6, 0x9b, 0x8c, 0x3d, 0x44, 0xfd, 0x01, 0xbf,
  0xbb, 0x52, 0xea, 0xbd, 0xad, 0xc4, 0x26, 0x3d, 0x85, 0x4f, 0xb0, 0xbe,
  0xfc, 0xe5, 0x04, 0x3f, 0xc7, 0x95, 0x28, 0xbe, 0x35, 0x72, 0x5b, 0x3e,
  0x2a, 0xb5, 0x11, 0xbe, 0xfd, 0x54, 0x99, 0x3d, 0x5f, 0x57, 0x91, 0x3e,
  0xb3, 0x2a, 0xd9, 0x3d, 0x5a, 0xea, 0x3c, 0x3e, 0x80, 0x58, 0xe7, 0xbd,
  0xfd, 0x51, 0x08, 0xbf, 0x25, 0xa1, 0xf4, 0x3c, 0xda, 0xdd, 0xcb, 0xbe,
  0x5d, 0x9c, 0x5a, 0xbe, 0x4f, 0x84, 0xa8, 0x3e, 0x84, 0xb1, 0x5b, 0xbe,
  0xb2, 0xe6, 0xea, 0x3b, 0xaa, 0xe4, 0x19, 0x3e, 0x4f, 0x4b, 0x9e, 0x3e,
  0xc9, 0xda, 0x85, 0xbd, 0x77, 0xab, 0xbd, 0xbc, 0x13, 0x0f, 0xcf, 0xbd,
  0x3f, 0xc9, 0xb3, 0x3e, 0x21, 0xd4, 0x76, 0x3e, 0x5c, 0xb1, 0xb8, 0x3d,
  0xfa, 0x5e, 0x5e, 0xbc, 0x1a, 0x6f, 0x15, 0xbe, 0xb9, 0xe6, 0x5e, 0xbe,
  0x36, 0xcd, 0x7b, 0xbe, 0x2f, 0x14, 0xb0, 0xbe, 0xb4, 0x27, 0x4b, 0xbe,
  0x49, 0xa7, 0x5b, 0x3e, 0x66, 0x5c, 0x54, 0x3e, 0x06, 0xdc, 0xa2, 0xbb,
  0xba, 0x8d, 0x23, 0xbe, 0x58, 0xc2, 0x91, 0x3e, 0x9e, 0xdd, 0x31, 0x3e,
  0x5f, 0xc8, 0x93, 0xbc, 0x50, 0xee, 0x21, 0xbd, 0x9f, 0xa6, 0x52, 0x3e,
  0x52, 0xf3, 0x11, 0x3e, 0x40, 0xfd, 0x70, 0x3d, 0xfe, 0x8f, 0x4f, 0x3e,
  0x62, 0x69, 0x8f, 0x3e, 0x16, 0xff, 0x86, 0x3e, 0x21, 0x84, 0x92, 0x3e,
  0x86, 0x97, 0x06, 0xbe, 0x2d, 0xb5, 0xcf, 0xbd, 0x04, 0xfe, 0xf7, 0xbd,
  0x15, 0x40, 0x17, 0xbf, 0x22, 0x0f, 0x8e, 0xbe, 0x86, 0xdf, 0xb7, 0xbe,
  0x16, 0x41, 0x03, 0x3f, 0x56, 0x39, 0xfc, 0x3e, 0x6a, 0x43, 0x2a, 0xbe,
  0x56, 0xd4, 0xa7, 0xbe, 0xc9, 0x3d, 0xcd, 0xbe, 0x10, 0xb9, 0xc5, 0xbe,
  0x71, 0x16, 0x28, 0x3e, 0xa7, 0x18, 0xba, 0x3d, 0xb3, 0xef, 0x95, 0x3d,
  0xf4, 0x49, 0x34, 0x3f, 0xbc, 0x52, 0x63, 0xbd, 0x02, 0x10, 0x09, 0xbe,
  0xcd, 0xae, 0x82, 0x3e, 0x42, 0x66, 0x9f, 0xbd, 0xba, 0x6e, 0xd7, 0x3d,
  0x20, 0x6f, 0x03, 0xbe, 0x62, 0x9f, 0x83, 0xbe, 0x5a, 0x35, 0xe8, 0x3e,
  0xce, 0x1c, 0x6e, 0xbe, 0x16, 0x70, 0x0b, 0xbf, 0xf2, 0xfd, 0xff, 0xff,
  0x04, 0x00, 0x00, 0x00, 0x00, 0x02, 0x00, 0x00, 0xb2, 0x1a, 0x64, 0xbe,
  0x8d, 0xf6, 0x07, 0x3e, 0x1a, 0x7d, 0x2b, 0x3e, 0xa0, 0x95, 0xd5, 0x3e,
  0x50, 0x22, 0x9c, 0xbe, 0x22, 0x1a, 0xc3, 0xbe, 0x37, 0xab, 0x6f, 0xbe,
  0x16, 0x9a, 0xc0, 0xbe, 0xbc, 0xf6, 0x0c, 0xbe, 0x23, 0x7e, 0xdc, 0xbe,
  0x65, 0x14, 0x50, 0xbe, 0x78, 0x8c, 0x06, 0xbf, 0xe4, 0x1c, 0xa2, 0xbe,
  0xab, 0x9e, 0xff, 0xbe, 0xdb, 0x90, 0x53, 0x3e, 0x8c, 0x56, 0x15, 0x3f,
  0xc7, 0x9a, 0x89, 0xbe, 0xac, 0x15, 0x31, 0xbc, 0xad, 0x0a, 0x9f, 0xbe,
  0xb8, 0x5a, 0x79, 0x3e, 0xc8, 0xe4, 0xa8, 0xbd, 0xc6, 0xd2, 0x04, 0xbe,
  0x49, 0x7c, 0x60, 0xbe, 0x21, 0x26, 0x7d, 0xbd, 0x9e, 0xf6, 0xa0, 0x3e,
  0xff, 0x2c, 0x8d, 0xbe, 0x91, 0x0c, 0x41, 0x3e, 0x6d, 0xaa, 0x15, 0x3e,
  0xed, 0xbf, 0x89, 0xbe, 0xf2, 0x8e, 0x13, 0xbf, 0xf3, 0x91, 0xa1, 0xbd,
  0x93, 0xdb, 0x9d, 0x3d, 0x88, 0x08, 0x92, 0xbe, 0xbe, 0xbf, 0x06, 0xbf,
  0x07, 0xae, 0xab, 0x3e, 0xdf, 0xdf, 0xb5, 0xbe, 0x17, 0x4b, 0x6f, 0x3e,
  0x11, 0xf6, 0x51, 0xbe, 0x76, 0xfb, 0x85, 0xbe, 0xb2, 0xcc, 0xc5, 0xbd,
  0x78, 0x36, 0xaf, 0x3e, 0x82, 0x34, 0x5f, 0xbe, 0xeb, 0xcb, 0x2b, 0xbe,
  0x54, 0xa6, 0x50, 0x3e, 0x57, 0x25, 0x05, 0x3e, 0x94, 0x17, 0xa4, 0xbd,
  0x00, 0xb6, 0x0e, 0xbe, 0xf4, 0xb0, 0x87, 0xbc, 0x8d, 0xd5, 0xe9, 0xbd,
  0x2c, 0x9d, 0x5f, 0xbc, 0xa3, 0xbd, 0xde, 0x3e, 0x55, 0x90, 0xed, 0x3e,
  0xf3, 0x47, 0x1c, 0x3f, 0xb2, 0xa7, 0x04, 0x3e, 0xb7, 0x62, 0xec, 0xbd,
  0x89, 0x06, 0xde, 0x3d, 0x88, 0x30, 0x67, 0xbd, 0xac, 0x5c, 0x20, 0xbe,
  0xb0, 0x43, 0x93, 0x3e, 0x70, 0xee, 0x99, 0x3e, 0xf7, 0x9d, 0x07, 0x3e,
  0x8d, 0x6b, 0x3d, 0x3e, 0x99, 0x3c, 0x07, 0x3e, 0x65, 0x95, 0x9f, 0xbd,
  0x63, 0x35, 0xdb, 0xbd, 0x16, 0x26, 0x15, 0x3e, 0x79, 0xf6, 0xc3, 0x3e,
  0xd6, 0xd0, 0x1d, 0x3f, 0xba, 0x46, 0x24, 0x3e, 0x6f, 0xfa, 0x8a, 0x3e,
  0x31, 0x55, 0x1b, 0x3f, 0x0e, 0xdd, 0xcf, 0x3e, 0x7f, 0x04, 0x21, 0x3f,
  0x2f, 0x0f, 0x98, 0x3e, 0x64, 0xf0, 0x7a, 0x3e, 0x9f, 0x73, 0xe5, 0x3d,
  0x2b, 0x5d, 0x57, 0xbe, 0x28, 0x04, 0xb9, 0x3e, 0x0b, 0x42, 0xfa, 0x3e,
  0xe3, 0x7a, 0x29, 0xbf, 0x29, 0x5e, 0xb7, 0x3e, 0x97, 0x72, 0x80, 0x3e,
  0x8e, 0x08, 0x49, 0x3c, 0xca, 0xdd, 0xab, 0xbe, 0x84, 0xcc, 0xcf, 0xbe,
  0xb4, 0xc8, 0x4c, 0xbe, 0xe3, 0x45, 0xc2, 0xbe, 0x6c, 0x4f, 0xfa, 0xbe,
  0xc4, 0x6c, 0xbc, 0x3e, 0x81, 0xe1, 0xb1, 0xbe, 0x5f, 0x07, 0x8e, 0x3e,
  0xcc, 0x4c, 0x84, 0xbe, 0x0d, 0xd4, 0x5d, 0x3e, 0x1e, 0xf8, 0xca, 0xbe,
  0x70, 0x73, 0x3b, 0xbd, 0xd5, 0x57, 0x06, 0xbf, 0x67, 0xf7, 0x42, 0xbe,
  0x60, 0xd9, 0xff, 0x3e, 0x58, 0x5b, 0xf5, 0x3e, 0xc4, 0xe2, 0xcf, 0x3d,
  0x12, 0x27, 0x06, 0x3f, 0x86, 0x95, 0x2a, 0x3d, 0xbe, 0x42, 0x38, 0x3e,
  0x3b, 0x99, 0x5e, 0x3e, 0x75, 0xa2, 0x01, 0x3f, 0x4c, 0xd1, 0x45, 0x3b,
  0xba, 0x42, 0xee, 0x3e, 0xd2, 0x12, 0xe7, 0x3e, 0x59, 0x28, 0xc9, 0xbe,
  0xf9, 0xda, 0x64, 0x3e, 0xa2, 0x80, 0x12, 0x3f, 0xa5, 0x2d, 0xcd, 0xbe,
  0x21, 0x4a, 0xc6, 0xbe, 0x13, 0xcc, 0x36, 0xbe, 0x99, 0x08, 0x94, 0xbe,
  0xee, 0x10, 0xcd, 0xbe, 0x30, 0x13, 0xb9, 0x3e, 0x55, 0x48, 0xb6, 0xbe,
  0x72, 0x62, 0x88, 0xbe, 0x61, 0x50, 0x87, 0x3d, 0xcd, 0xfb, 0x9e, 0x3e,
  0x2b, 0x8c, 0xc4, 0xbd, 0xe6, 0xb1, 0xd0, 0x3d, 0x55, 0xa4, 0xcc, 0xbc,
  0x1e, 0x9d, 0xdc, 0xbd, 0x00, 0xd8, 0xaa, 0xbe, 0xb8, 0x6b, 0xd1, 0xbd,
  0xeb, 0xb6, 0x17, 0x3d, 0x00, 0x00, 0x06, 0x00, 0x08, 0x00, 0x04, 0x00,
  0x06, 0x00, 0x00, 0x00, 0x04, 0x00, 0x00, 0x00, 0x20, 0x00, 0x00, 0x00,
  0x19, 0x57, 0xc6, 0xbe, 0x16, 0xab, 0xba, 0xbe, 0xc2, 0x0c, 0x33, 0xbd,
  0xf4, 0x86, 0x28, 0x3d, 0x5c, 0x8a, 0x5a, 0x3e, 0xe2, 0xec, 0xff, 0xbe,
  0xda, 0x36, 0x91, 0x3e, 0x08, 0xeb, 0x3f, 0xbe, 0xe0, 0xf9, 0xff, 0xff,
  0xe4, 0xf9, 0xff, 0xff, 0x0f, 0x00, 0x00, 0x00, 0x4d, 0x4c, 0x49, 0x52,
  0x20, 0x43, 0x6f, 0x6e, 0x76, 0x65, 0x72, 0x74, 0x65, 0x64, 0x2e, 0x00,
  0x01, 0x00, 0x00, 0x00, 0x14, 0x00, 0x00, 0x00, 0x00, 0x00, 0x0e, 0x00,
  0x18, 0x00, 0x14, 0x00, 0x10, 0x00, 0x0c, 0x00, 0x08, 0x00, 0x04, 0x00,
  0x0e, 0x00, 0x00, 0x00, 0x14, 0x00, 0x00, 0x00, 0x1c, 0x00, 0x00, 0x00,
  0x10, 0x01, 0x00, 0x00, 0x14, 0x01, 0x00, 0x00, 0x18, 0x01, 0x00, 0x00,
  0x04, 0x00, 0x00, 0x00, 0x6d, 0x61, 0x69, 0x6e, 0x00, 0x00, 0x00, 0x00,
  0x04, 0x00, 0x00, 0x00, 0xb8, 0x00, 0x00, 0x00, 0x70, 0x00, 0x00, 0x00,
  0x38, 0x00, 0x00, 0x00, 0x04, 0x00, 0x00, 0x00, 0x66, 0xff, 0xff, 0xff,
  0x10, 0x00, 0x00, 0x00, 0x00, 0x00, 0x00, 0x08, 0x0c, 0x00, 0x00, 0x00,
  0x10, 0x00, 0x00, 0x00, 0x60, 0xfa, 0xff, 0xff, 0x01, 0x00, 0x00, 0x00,
  0x0c, 0x00, 0x00, 0x00, 0x03, 0x00, 0x00, 0x00, 0x0b, 0x00, 0x00, 0x00,
  0x01, 0x00, 0x00, 0x00, 0x04, 0x00, 0x00, 0x00, 0x96, 0xff, 0xff, 0xff,
  0x10, 0x00, 0x00, 0x00, 0x00, 0x00, 0x00, 0x08, 0x10, 0x00, 0x00, 0x00,
  0x14, 0x00, 0x00, 0x00, 0x86, 0xff, 0xff, 0xff, 0x00, 0x00, 0x00, 0x01,
  0x01, 0x00, 0x00, 0x00, 0x0b, 0x00, 0x00, 0x00, 0x03, 0x00, 0x00, 0x00,
  0x0a, 0x00, 0x00, 0x00, 0x02, 0x00, 0x00, 0x00, 0x05, 0x00, 0x00, 0x00,
  0xca, 0xff, 0xff, 0xff, 0x10, 0x00, 0x00, 0x00, 0x00, 0x00, 0x00, 0x08,
  0x10, 0x00, 0x00, 0x00, 0x14, 0x00, 0x00, 0x00, 0xba, 0xff, 0xff, 0xff,
  0x00, 0x00, 0x00, 0x01, 0x01, 0x00, 0x00, 0x00, 0x0a, 0x00, 0x00, 0x00,
  0x03, 0x00, 0x00, 0x00, 0x09, 0x00, 0x00, 0x00, 0x03, 0x00, 0x00, 0x00,
  0x06, 0x00, 0x00, 0x00, 0x00, 0x00, 0x0e, 0x00, 0x16, 0x00, 0x00, 0x00,
  0x10, 0x00, 0x0c, 0x00, 0x0b, 0x00, 0x04, 0x00, 0x0e, 0x00, 0x00, 0x00,
  0x18, 0x00, 0x00, 0x00, 0x00, 0x00, 0x00, 0x08, 0x18, 0x00, 0x00, 0x00,
  0x1c, 0x00, 0x00, 0x00, 0x00, 0x00, 0x06, 0x00, 0x08, 0x00, 0x07, 0x00,
  0x06, 0x00, 0x00, 0x00, 0x00, 0x00, 0x00, 0x01, 0x01, 0x00, 0x00, 0x00,
  0x09, 0x00, 0x00, 0x00, 0x03, 0x00, 0x00, 0x00, 0x00, 0x00, 0x00, 0x00,
  0x08, 0x00, 0x00, 0x00, 0x07, 0x00, 0x00, 0x00, 0x01, 0x00, 0x00, 0x00,
  0x0c, 0x00, 0x00, 0x00, 0x01, 0x00, 0x00, 0x00, 0x00, 0x00, 0x00, 0x00,
  0x0d, 0x00, 0x00, 0x00, 0x94, 0x04, 0x00, 0x00, 0x3c, 0x04, 0x00, 0x00,
  0xe4, 0x03, 0x00, 0x00, 0xa4, 0x03, 0x00, 0x00, 0x68, 0x03, 0x00, 0x00,
  0x2c, 0x03, 0x00, 0x00, 0xd0, 0x02, 0x00, 0x00, 0x78, 0x02, 0x00, 0x00,
  0x2c, 0x02, 0x00, 0x00, 0x98, 0x01, 0x00, 0x00, 0xfc, 0x00, 0x00, 0x00,
  0x60, 0x00, 0x00, 0x00, 0x04, 0x00, 0x00, 0x00, 0xb6, 0xfb, 0xff, 0xff,
  0x00, 0x00, 0x00, 0x01, 0x14, 0x00, 0x00, 0x00, 0x1c, 0x00, 0x00, 0x00,
  0x1c, 0x00, 0x00, 0x00, 0x0d, 0x00, 0x00, 0x00, 0x34, 0x00, 0x00, 0x00,
  0x02, 0x00, 0x00, 0x00, 0xff, 0xff, 0xff, 0xff, 0x01, 0x00, 0x00, 0x00,
  0xa0, 0xfb, 0xff, 0xff, 0x1b, 0x00, 0x00, 0x00, 0x53, 0x74, 0x61, 0x74,
  0x65, 0x66, 0x75, 0x6c, 0x50, 0x61, 0x72, 0x74, 0x69, 0x74, 0x69, 0x6f,
  0x6e, 0x65, 0x64, 0x43, 0x61, 0x6c, 0x6c, 0x5f, 0x31, 0x3a, 0x30, 0x00,
  0x02, 0x00, 0x00, 0x00, 0x01, 0x00, 0x00, 0x00, 0x01, 0x00, 0x00, 0x00,
  0x0e, 0xfc, 0xff, 0xff, 0x00, 0x00, 0x00, 0x01, 0x14, 0x00, 0x00, 0x00,
  0x1c, 0x00, 0x00, 0x00, 0x1c, 0x00, 0x00, 0x00, 0x0c, 0x00, 0x00, 0x00,
  0x74, 0x00, 0x00, 0x00, 0x02, 0x00, 0x00, 0x00, 0xff, 0xff, 0xff, 0xff,
  0x08, 0x00, 0x00, 0x00, 0xf8, 0xfb, 0xff, 0xff, 0x58, 0x00, 0x00, 0x00,
  0x73, 0x65, 0x71, 0x75, 0x65, 0x6e, 0x74, 0x69, 0x61, 0x6c, 0x5f, 0x31,
  0x2f, 0x64, 0x65, 0x6e, 0x73, 0x65, 0x5f, 0x32, 0x5f, 0x31, 0x2f, 0x4d,
  0x61, 0x74, 0x4d, 0x75, 0x6c, 0x3b, 0x73, 0x65, 0x71, 0x75, 0x65, 0x6e,
  0x74, 0x69, 0x61, 0x6c, 0x5f, 0x31, 0x2f, 0x64, 0x65, 0x6e, 0x73, 0x65,
  0x5f, 0x32, 0x5f, 0x31, 0x2f, 0x52, 0x65, 0x6c, 0x75, 0x3b, 0x73, 0x65,
  0x71, 0x75, 0x65, 0x6e, 0x74, 0x69, 0x61, 0x6c, 0x5f, 0x31, 0x2f, 0x64,
  0x65, 0x6e, 0x73, 0x65, 0x5f, 0x32, 0x5f, 0x31, 0x2f, 0x42, 0x69, 0x61,
  0x73, 0x41, 0x64, 0x64, 0x00, 0x00, 0x00, 0x00, 0x02, 0x00, 0x00, 0x00,
  0x01, 0x00, 0x00, 0x00, 0x08, 0x00, 0x00, 0x00, 0xa6, 0xfc, 0xff, 0xff,
  0x00, 0x00, 0x00, 0x01, 0x14, 0x00, 0x00, 0x00, 0x1c, 0x00, 0x00, 0x00,
  0x1c, 0x00, 0x00, 0x00, 0x0b, 0x00, 0x00, 0x00, 0x74, 0x00, 0x00, 0x00,
  0x02, 0x00, 0x00, 0x00, 0xff, 0xff, 0xff, 0xff, 0x10, 0x00, 0x00, 0x00,
  0x90, 0xfc, 0xff, 0xff, 0x58, 0x00, 0x00, 0x00, 0x73, 0x65, 0x71, 0x75,
  0x65, 0x6e, 0x74, 0x69, 0x61, 0x6c, 0x5f, 0x31, 0x2f, 0x64, 0x65, 0x6e,
  0x73, 0x65, 0x5f, 0x31, 0x5f, 0x32, 0x2f, 0x4d, 0x61, 0x74, 0x4d, 0x75,
  0x6c, 0x3b, 0x73, 0x65, 0x71, 0x75, 0x65, 0x6e, 0x74, 0x69, 0x61, 0x6c,
  0x5f, 0x31, 0x2f, 0x64, 0x65, 0x6e, 0x73, 0x65, 0x5f, 0x31, 0x5f, 0x32,
  0x2f, 0x52, 0x65, 0x6c, 0x75, 0x3b, 0x73, 0x65, 0x71, 0x75, 0x65, 0x6e,
  0x74, 0x69, 0x61, 0x6c, 0x5f, 0x31, 0x2f, 0x64, 0x65, 0x6e, 0x73, 0x65,
  0x5f, 0x31, 0x5f, 0x32, 0x2f, 0x42, 0x69, 0x61, 0x73, 0x41, 0x64, 0x64,
  0x00, 0x00, 0x00, 0x00, 0x02, 0x00, 0x00, 0x00, 0x01, 0x00, 0x00, 0x00,
  0x10, 0x00, 0x00, 0x00, 0x3e, 0xfd, 0xff, 0xff, 0x00, 0x00, 0x00, 0x01,
  0x14, 0x00, 0x00, 0x00, 0x1c, 0x00, 0x00, 0x00, 0x1c, 0x00, 0x00, 0x00,
  0x0a, 0x00, 0x00, 0x00, 0x6c, 0x00, 0x00, 0x00, 0x02, 0x00, 0x00, 0x00,
  0xff, 0xff, 0xff, 0xff, 0x20, 0x00, 0x00, 0x00, 0x28, 0xfd, 0xff, 0xff,
  0x52, 0x00, 0x00, 0x00, 0x73, 0x65, 0x71, 0x75, 0x65, 0x6e, 0x74, 0x69,
  0x61, 0x6c, 0x5f, 0x31, 0x2f, 0x64, 0x65, 0x6e, 0x73, 0x65, 0x5f, 0x31,
  0x2f, 0x4d, 0x61, 0x74, 0x4d, 0x75, 0x6c, 0x3b, 0x73, 0x65, 0x71, 0x75,
  0x65, 0x6e, 0x74, 0x69, 0x61, 0x6c, 0x5f, 0x31, 0x2f, 0x64, 0x65, 0x6e,
  0x73, 0x65, 0x5f, 0x31, 0x2f, 0x52, 0x65, 0x6c, 0x75, 0x3b, 0x73, 0x65,
  0x71, 0x75, 0x65, 0x6e, 0x74, 0x69, 0x61, 0x6c, 0x5f, 0x31, 0x2f, 0x64,
  0x65, 0x6e, 0x73, 0x65, 0x5f, 0x31, 0x2f, 0x42, 0x69, 0x61, 0x73, 0x41,
  0x64, 0x64, 0x00, 0x00, 0x02, 0x00, 0x00, 0x00, 0x01, 0x00, 0x00, 0x00,
  0x20, 0x00, 0x00, 0x00, 0x22, 0xfe, 0xff, 0xff, 0x00, 0x00, 0x00, 0x01,
  0x10, 0x00, 0x00, 0x00, 0x10, 0x00, 0x00, 0x00, 0x09, 0x00, 0x00, 0x00,
  0x28, 0x00, 0x00, 0x00, 0xa8, 0xfd, 0xff, 0xff, 0x1b, 0x00, 0x00, 0x00,
  0x73, 0x65, 0x71, 0x75, 0x65, 0x6e, 0x74, 0x69, 0x61, 0x6c, 0x5f, 0x31,
  0x2f, 0x64, 0x65, 0x6e, 0x73, 0x65, 0x5f, 0x31, 0x2f, 0x4d, 0x61, 0x74,
  0x4d, 0x75, 0x6c, 0x00, 0x02, 0x00, 0x00, 0x00, 0x20, 0x00, 0x00, 0x00,
  0x0a, 0x00, 0x00, 0x00, 0x6a, 0xfe, 0xff, 0xff, 0x00, 0x00, 0x00, 0x01,
  0x10, 0x00, 0x00, 0x00, 0x10, 0x00, 0x00, 0x00, 0x08, 0x00, 0x00, 0x00,
  0x38, 0x00, 0x00, 0x00, 0xf0, 0xfd, 0xff, 0xff, 0x2b, 0x00, 0x00, 0x00,
  0x73, 0x65, 0x71, 0x75, 0x65, 0x6e, 0x74, 0x69, 0x61, 0x6c, 0x5f, 0x31,
  0x2f, 0x64, 0x65, 0x6e, 0x73, 0x65, 0x5f, 0x31, 0x2f, 0x42, 0x69, 0x61,
  0x73, 0x41, 0x64, 0x64, 0x2f, 0x52, 0x65, 0x61, 0x64, 0x56, 0x61, 0x72,
  0x69, 0x61, 0x62, 0x6c, 0x65, 0x4f, 0x70, 0x00, 0x01, 0x00, 0x00, 0x00,
  0x20, 0x00, 0x00, 0x00, 0xbe, 0xfe, 0xff, 0xff, 0x00, 0x00, 0x00, 0x01,
  0x10, 0x00, 0x00, 0x00, 0x10, 0x00, 0x00, 0x00, 0x07, 0x00, 0x00, 0x00,
  0x3c, 0x00, 0x00, 0x00, 0x44, 0xfe, 0xff, 0xff, 0x2d, 0x00, 0x00, 0x00,
  0x73, 0x65, 0x71, 0x75, 0x65, 0x6e, 0x74, 0x69, 0x61, 0x6c, 0x5f, 0x31,
  0x2f, 0x64, 0x65, 0x6e, 0x73, 0x65, 0x5f, 0x31, 0x5f, 0x32, 0x2f, 0x42,
  0x69, 0x61, 0x73, 0x41, 0x64, 0x64, 0x2f, 0x52, 0x65, 0x61, 0x64, 0x56,
  0x61, 0x72, 0x69, 0x61, 0x62, 0x6c, 0x65, 0x4f, 0x70, 0x00, 0x00, 0x00,
  0x01, 0x00, 0x00, 0x00, 0x10, 0x00, 0x00, 0x00, 0x16, 0xff, 0xff, 0xff,
  0x00, 0x00, 0x00, 0x01, 0x10, 0x00, 0x00, 0x00, 0x10, 0x00, 0x00, 0x00,
  0x06, 0x00, 0x00, 0x00, 0x1c, 0x00, 0x00, 0x00, 0x9c, 0xfe, 0xff, 0xff,
  0x0f, 0x00, 0x00, 0x00, 0x61, 0x72, 0x69, 0x74, 0x68, 0x2e, 0x63, 0x6f,
  0x6e, 0x73, 0x74, 0x61, 0x6e, 0x74, 0x34, 0x00, 0x01, 0x00, 0x00, 0x00,
  0x08, 0x00, 0x00, 0x00, 0x4e, 0xff, 0xff, 0xff, 0x00, 0x00, 0x00, 0x01,
  0x10, 0x00, 0x00, 0x00, 0x10, 0x00, 0x00, 0x00, 0x05, 0x00, 0x00, 0x00,
  0x1c, 0x00, 0x00, 0x00, 0xd4, 0xfe, 0xff, 0xff, 0x0f, 0x00, 0x00, 0x00,
  0x61, 0x72, 0x69, 0x74, 0x68, 0x2e, 0x63, 0x6f, 0x6e, 0x73, 0x74, 0x61,
  0x6e, 0x74, 0x33, 0x00, 0x01, 0x00, 0x00, 0x00, 0x01, 0x00, 0x00, 0x00,
  0x86, 0xff, 0xff, 0xff, 0x00, 0x00, 0x00, 0x01, 0x10, 0x00, 0x00, 0x00,
  0x10, 0x00, 0x00, 0x00, 0x04, 0x00, 0x00, 0x00, 0x1c, 0x00, 0x00, 0x00,
  0x0c, 0xff, 0xff, 0xff, 0x0f, 0x00, 0x00, 0x00, 0x61, 0x72, 0x69, 0x74,
  0x68, 0x2e, 0x63, 0x6f, 0x6e, 0x73, 0x74, 0x61, 0x6e, 0x74, 0x32, 0x00,
  0x02, 0x00, 0x00, 0x00, 0x10, 0x00, 0x00, 0x00, 0x20, 0x00, 0x00, 0x00,
  0xc2, 0xff, 0xff, 0xff, 0x00, 0x00, 0x00, 0x01, 0x10, 0x00, 0x00, 0x00,
  0x10, 0x00, 0x00, 0x00, 0x03, 0x00, 0x00, 0x00, 0x1c, 0x00, 0x00, 0x00,
  0x48, 0xff, 0xff, 0xff, 0x0f, 0x00, 0x00, 0x00, 0x61, 0x72, 0x69, 0x74,
  0x68, 0x2e, 0x63, 0x6f, 0x6e, 0x73, 0x74, 0x61, 0x6e, 0x74, 0x31, 0x00,
  0x02, 0x00, 0x00, 0x00, 0x08, 0x00, 0x00, 0x00, 0x10, 0x00, 0x00, 0x00,
  0x00, 0x00, 0x16, 0x00, 0x18, 0x00, 0x14, 0x00, 0x00, 0x00, 0x10, 0x00,
  0x0c, 0x00, 0x08, 0x00, 0x00, 0x00, 0x00, 0x00, 0x00, 0x00, 0x07, 0x00,
  0x16, 0x00, 0x00, 0x00, 0x00, 0x00, 0x00, 0x01, 0x10, 0x00, 0x00, 0x00,
  0x10, 0x00, 0x00, 0x00, 0x02, 0x00, 0x00, 0x00, 0x1c, 0x00, 0x00, 0x00,
  0x9c, 0xff, 0xff, 0xff, 0x0e, 0x00, 0x00, 0x00, 0x61, 0x72, 0x69, 0x74,
  0x68, 0x2e, 0x63, 0x6f, 0x6e, 0x73, 0x74, 0x61, 0x6e, 0x74, 0x00, 0x00,
  0x02, 0x00, 0x00, 0x00, 0x01, 0x00, 0x00, 0x00, 0x08, 0x00, 0x00, 0x00,
  0x00, 0x00, 0x16, 0x00, 0x1c, 0x00, 0x18, 0x00, 0x00, 0x00, 0x14, 0x00,
  0x10, 0x00, 0x0c, 0x00, 0x00, 0x00, 0x00, 0x00, 0x08, 0x00, 0x07, 0x00,
  0x16, 0x00, 0x00, 0x00, 0x00, 0x00, 0x00, 0x01, 0x14, 0x00, 0x00, 0x00,
  0x20, 0x00, 0x00, 0x00, 0x20, 0x00, 0x00, 0x00, 0x01, 0x00, 0x00, 0x00,
  0x3c, 0x00, 0x00, 0x00, 0x02, 0x00, 0x00, 0x00, 0xff, 0xff, 0xff, 0xff,
  0x0a, 0x00, 0x00, 0x00, 0x04, 0x00, 0x04, 0x00, 0x04, 0x00, 0x00, 0x00,
  0x1d, 0x00, 0x00, 0x00, 0x73, 0x65, 0x72, 0x76, 0x69, 0x6e, 0x67, 0x5f,
  0x64, 0x65, 0x66, 0x61, 0x75, 0x6c, 0x74, 0x5f, 0x69, 0x6e, 0x70, 0x75,
  0x74, 0x5f, 0x6c, 0x61, 0x79, 0x65, 0x72, 0x3a, 0x30, 0x00, 0x00, 0x00,
  0x02, 0x00, 0x00, 0x00, 0x01, 0x00, 0x00, 0x00, 0x0a, 0x00, 0x00, 0x00,
  0x01, 0x00, 0x00, 0x00, 0x10, 0x00, 0x00, 0x00, 0x0c, 0x00, 0x0c, 0x00,
  0x0b, 0x00, 0x00, 0x00, 0x00, 0x00, 0x04, 0x00, 0x0c, 0x00, 0x00, 0x00,
  0x09, 0x00, 0x00, 0x00, 0x00, 0x00, 0x00, 0x09
};
unsigned int model_tflite_len = 6356;


#endif
